// --- Biases of toto, cast as u32

u32 BIASES_1[100] = 
	{
		0x0da58a9b, 0x4843ccdf, 0x09c9a235, 0x0fb2a40f, 0x0bda0cb4, 0x073337a9, 0x08944958, 0x0c7547f7,
		0x47d79c91, 0x498cafd8, 0x52974def, 0x083a2650, 0x5440930e, 0x58d800ae, 0x39266975, 0x134ec366,
		0x10307af2, 0x082099d6, 0x083f17f7, 0x0dc2f248, 0x0bf7503c, 0x0c47b090, 0x394afa60, 0x611e3a61,
		0x6a066f17, 0x1110d837, 0x44fdd39b, 0x0d6c3588, 0x593557d0, 0x0e54e108, 0x0e0de1f8, 0x0d029c8d,
		0x79b56e2a, 0x199bddf7, 0x07ee251d, 0x68fbad6b, 0x53e21171, 0x10e6e87c, 0x4b378e4f, 0x4526a3f8,
		0x7d12fe30, 0x0874f4af, 0x0cc19451, 0x4cb543a2, 0x0818c1ec, 0x0ca845fe, 0x48e86fb0, 0x6cd74171,
		0x685ddff7, 0x083e146f, 0x0bd9deab, 0x0c350eb1, 0x096a183f, 0x51c789d4, 0x61d38d60, 0x7082189e,
		0x074760fd, 0x5b72b2cb, 0x0fa4e89c, 0x5ce34878, 0x15db6449, 0x5a3608b2, 0x5e171480, 0x0cc59202,
		0x0ac3cc2e, 0x163e5871, 0x54388a7c, 0x5cae6eab, 0x7b624373, 0x0c8668e8, 0x0d5d471e, 0x4459ecf3,
		0x52603ecd, 0x094faccf, 0x6ae0e5f4, 0x09a209e1, 0x0d43c41b, 0x091e5503, 0x61ca7203, 0x1756482b,
		0x09dec6f2, 0x5661ac81, 0x5b077421, 0x0d784215, 0x62a8c29c, 0x540592de, 0x3d68b797, 0x09feedde,
		0x0bf18a2f, 0x0e4b7f28, 0x65380467, 0x083f317c, 0x0c18be64, 0x53d92f58, 0x0ba578ce, 0x0e7d569d,
		0x0d436877, 0x40040199, 0x12be9e1a, 0x41d17d96
	};

u32 BIASES_2[100] = 
	{
		0x947f2052, 0x488c7b1e, 0x8c59db81, 0x94211267, 0x42d2922c, 0x87cd7807, 0x7a796fd9, 0x84a25a31,
		0x5a17bdeb, 0x33956b0b, 0x54997257, 0x7fa43aa1, 0xb26f5cf1, 0x829ba2f5, 0x58854d41, 0x69c76446,
		0x51835218, 0x7afb053b, 0x562b769e, 0x9b5b783a, 0x664e7ac1, 0x54af1953, 0x6ca45865, 0x84599f6e,
		0x65ea4acc, 0x5d002e9f, 0x2e018f0b, 0x43770abf, 0x400d3499, 0xb9034267, 0x3da69ac6, 0x6afc17ec,
		0x8c620445, 0x8562bcbc, 0x5df3e0b1, 0x8811dbd5, 0x60c4c968, 0x7a79b5ab, 0x7d3bcb1d, 0x4cba4cfc,
		0x5b4a6651, 0x411858af, 0x3c3fcd8c, 0x55192a89, 0x6a566391, 0x65d61717, 0x41986c1e, 0x80319c23,
		0x452ca41a, 0x44cef353, 0x6fed6a37, 0x38f488ba, 0x8aab627a, 0xa006cb7e, 0x37413815, 0x3d8ad5de,
		0x7069f950, 0x65a5ed9b, 0x706c2c2c, 0x2f9d0cfe, 0x52a1fe83, 0x7949aeb5, 0x80da691c, 0x490436fe,
		0x39cfee2b, 0x5504aa11, 0x5c50c8a1, 0x538f532f, 0x67bad0fe, 0x6f527b60, 0x7c833fd9, 0x46658f73,
		0x768b6b96, 0x5e36e0cf, 0x4e98eb59, 0xbc2da26a, 0x67bad21a, 0x4079884b, 0x9353561e, 0x5e40007d,
		0x75ee7bac, 0x65b05902, 0x74a7704e, 0x556ce6fd, 0x70635285, 0x83896423, 0x4cf17221, 0x75980bd3,
		0x3f626950, 0x3c5b318d, 0x4f299b83, 0x6d80f9bf, 0x39702d7c, 0x98204421, 0x53e369dc, 0x4eb48ab9,
		0x663c2523, 0x94eaecb7, 0x51819db8, 0x3ad761e5
	};

u32 BIASES_3[100] = 
	{
		0x73873c5d, 0xaa4d84a8, 0x69bdfb8d, 0x6121ad08, 0x770a6d34, 0x8c8b0ab4, 0x65c9f61f, 0x7bea29c6,
		0xa55d5986, 0x7bd92daf, 0x7916f08c, 0x7e43552d, 0x928a7bdf, 0x7c9cd8cd, 0x74a17dd9, 0x943184c0,
		0x92392758, 0x8f80cc8c, 0x564acb24, 0x6064c8ec, 0x9793b6ea, 0x85477f04, 0x79c6aded, 0x7a2dea30,
		0x7d9509cd, 0x5f3d74f6, 0x68ece14c, 0x7a55e666, 0x4cad3bb4, 0x79b32525, 0x55cd8989, 0x7e3664c8,
		0x79814e15, 0x80428429, 0x8cb3f923, 0x849e874f, 0x58918329, 0x97e73ee2, 0x517b72ac, 0x9ecce2dc,
		0x8705a355, 0x55b7d5b2, 0x5b5f8814, 0x69579780, 0x7749f64a, 0x63aa9c86, 0x4f7a17dd, 0x54459fe1,
		0x7c844388, 0x6d4ec1f6, 0x7324539d, 0x8ecb4ba6, 0x8e20856a, 0x7d0b323a, 0x6fcb809b, 0x6660afe3,
		0x66a07850, 0x5bd512d1, 0x645d7e36, 0x55e18d7d, 0x56884002, 0x6a25282a, 0x66fb0d17, 0x715fc9dc,
		0x7484724c, 0x49f82445, 0x6f6bb40f, 0x7dd9c77a, 0x7cd40c6d, 0x5dc91360, 0x88de15e4, 0x800baa8e,
		0x41ef9beb, 0x66b9269a, 0x7b40f61e, 0x895df827, 0x721d87b9, 0x6bd1e07a, 0x57deaf8b, 0x7fe018ed,
		0x692ec7e6, 0xadaec899, 0xaa1eda06, 0x78c88d8a, 0x685c33b3, 0x7f59aadb, 0x748f7805, 0x8d05bfd0,
		0x82bbec90, 0x6f3bf7c1, 0x627dbaa3, 0x649ccff5, 0x55aab70f, 0x65ba2bf6, 0x9d5d8493, 0x66ea4680,
		0x6a5bf3a7, 0x977987c5, 0x7ff133fa, 0x5362b8f4
	};

u32 BIASES_4[100] = 
	{
		0x74093bc3, 0x8290a5c8, 0x69194e6d, 0x541b25ce, 0x6f608a5f, 0x50a1934d, 0x69f29fb6, 0x95acdddf,
		0x792e4366, 0x952c977d, 0x7c170e6c, 0x89bf46a1, 0x62ed9809, 0x6ed3cd93, 0xad5cfef0, 0x79360e82,
		0x5d707130, 0x76086f08, 0x4c601204, 0x8099802b, 0x7abbfd27, 0x63d710c9, 0x685c1669, 0x49dedc9b,
		0x5ac8d95f, 0x63825f1f, 0x6d3197f9, 0x70895203, 0x75e86e21, 0x92d7a239, 0x7c77d73f, 0x873a0f13,
		0x5f85cc00, 0x69912f0e, 0x69925021, 0x7ab0a2a2, 0x709d99a5, 0x81b9e06f, 0x7f9add29, 0x632183d2,
		0x6d482600, 0x99b3c358, 0x5a84c802, 0x71eb2c53, 0x83109851, 0x71d2efd0, 0x7c468273, 0x93cef499,
		0x6edfccf6, 0x90d3b745, 0x9c607713, 0x828a70c9, 0x6c87dbcd, 0x6d689be4, 0x6ba06cf4, 0x6b8ab7e4,
		0x9f0b4996, 0x70629e9b, 0x8b587b5a, 0x6450f487, 0x69909d8c, 0x7e461c6b, 0x6654fcfe, 0x6518e41d,
		0x538d1f8c, 0x4cf46f01, 0x8ea940e6, 0x62cea447, 0x64154863, 0x6a6616b7, 0x75b68885, 0x802d6fef,
		0x596e6738, 0x9ecf49b6, 0x737e91ee, 0x69e54c6b, 0x863e5f80, 0xa4ad1f44, 0x5272bed9, 0x7899c7fa,
		0x82a2c3a5, 0x7e17c671, 0xad6260d7, 0x7a637884, 0x5786579b, 0x73653071, 0x6c8f3281, 0x9195f861,
		0x61ccbd17, 0x8d5f00ee, 0x63b87c23, 0x675760dc, 0x858f411d, 0x814383ea, 0x747b3446, 0x31ff0dc3,
		0x64f821dc, 0x6a835bd2, 0x58bc00f6, 0x5fe6937a
	};

u32 BIASES_5[10] = 
	{
		0xdcf2e34c, 0xdccfc014, 0xdcafde9a, 0xdcef4a3a, 0xdd021d73, 0xdcf0d9bb, 0xdcf8b74a, 0xdca27c34,
		0xddc9dcc5, 0xdd324e2f
	};

// --- done.